TRT-101000-EntropyCalibration2
/bert/encoder/layer.1/attention/self/Transpose_2_output_0: 3d2b07c5
/bert/encoder/layer.1/intermediate/intermediate_act_fn/Mul_output_0: 3d8de403
bert.pooler.dense.weight_output: 3ba026e0
/bert/encoder/layer.1/attention/self/Div_output_0: 3a810a14
/bert/encoder/layer.1/attention/output/Add_output_0: 3e048336
/bert/encoder/layer.0/attention/self/MatMul_1_output_0: 3d4f8898
/bert/encoder/layer.1/attention/self/value/MatMul_output_0: 3d6adeb2
ONNXTRT_Broadcast_264_output: 3c367d3d
/bert/encoder/layer.0/intermediate/intermediate_act_fn/Div_output_0: 3d8793b1
/bert/encoder/layer.1/attention/self/Sqrt_1_output_0: 3b367d3d
ONNXTRT_Broadcast_266_output: 3c010a14
/bert/encoder/layer.0/attention/output/dense/Add_output_0: 3dd21aa3
ONNXTRT_Broadcast_194_output: 3b381e3c
onnx::MatMul_376_output: 3b5e3c22
/bert/encoder/layer.1/attention/self/Reshape_3_output_0: 3d39b39c
bert.encoder.layer.0.attention.output.dense.bias_output: 3b2ca727
/bert/encoder/layer.1/attention/self/Softmax_output_0: 3b26061c
/classifier/Gemm_output: 3da0576a
/bert/encoder/layer.0/attention/self/value/Add_output_0: 3d80b01d
ONNXTRT_Broadcast_120_output: 3b069168
classifier.bias_output: 3a1f54e2
/bert/encoder/layer.1/attention/self/MatMul_output_0: 3da22ed7
ONNXTRT_Broadcast_281_output: 3ac7a73c
/bert/encoder/layer.0/attention/self/Softmax_output_0: 3b76a7ae
/bert/encoder/layer.0/attention/self/Softmax_output: 3b76a7ae
ONNXTRT_Broadcast_199_output: 3b1caa1b
bert.encoder.layer.0.attention.self.value.bias_output: 3b069168
ONNXTRT_Broadcast_184_output: 3bce389d
bert.encoder.layer.0.output.dense.bias_output: 3b4d7a97
/bert/encoder/layer.0/attention/self/Add_output_0: 7f800000
/bert/encoder/layer.0/attention/self/Transpose_3_output_0: 3d4f8898
/bert/encoder/layer.1/attention/self/Reshape_1_output_0: 3d2b07c5
/bert/encoder/layer.0/attention/self/MatMul_output_0: 3e2aa682
ONNXTRT_Broadcast_252_output: 3c1f1e63
ONNXTRT_Broadcast_178_output: 3c367d3d
/bert/pooler/activation/Tanh_output_0: 3c02b55d
/bert/encoder/layer.1/attention/self/Sqrt_output_0: 3d810a14
/bert/pooler/dense/Gemm_output: 3db98512
ONNXTRT_Broadcast_158_output: 3b367d3d
onnx::MatMul_377_output: 3b930eeb
/bert/encoder/layer.1/attention/self/Mul_output_0: 3c63187f
/bert/encoder/layer.1/attention/self/Reshape_output_0: 3d2094b6
/bert/encoder/layer.0/output/dense/MatMul_output_0: 3df86666
onnx::MatMul_391_output: 3b840366
/bert/encoder/layer.1/attention/self/key/MatMul_output_0: 3d286023
/bert/encoder/layer.0/attention/self/Reshape_3_output_0: 3d4f8898
bert.encoder.layer.1.attention.output.dense.bias_output: 3c1f1e63
/bert/encoder/layer.1/attention/self/key/Add_output_0: 3d2b07c5
/bert/encoder/layer.0/attention/self/Cast_output_0: 3f010a14
ONNXTRT_Broadcast_164_output: 3b5e3c22
ONNXTRT_Broadcast_166_output: 3b2ca727
bert.encoder.layer.1.attention.self.query.bias_output: 3b96f374
/bert/encoder/layer.0/intermediate/intermediate_act_fn/Constant_output_0_output: 3c367d3d
/bert/encoder/layer.0/attention/self/Div_output_0: 3a810a14
/bert/encoder/layer.0/attention/self/Mul_1_output_0: 3c80b286
/bert/encoder/layer.0/attention/self/Sqrt_2_output_0: 3b367d3d
/bert/encoder/layer.0/attention/self/Sqrt_output_0: 3d810a14
ONNXTRT_Broadcast_156_output: 3b367d3d
/bert/encoder/layer.0/intermediate/dense/Add_output_0: 3dbfbc17
/bert/encoder/layer.1/intermediate/intermediate_act_fn/Mul_1_output_0: 3d0de403
/bert/encoder/layer.0/attention/self/Cast_1_output_0: 3a810a14
/bert/encoder/layer.0/attention/self/Sqrt_1_output_0: 3b367d3d
/bert/encoder/layer.0/intermediate/intermediate_act_fn/Add_output_0: 3c810a14
ONNXTRT_Broadcast_250_output: 3bd1f3a1
onnx::MatMul_379_output: 3b381e3c
/bert/encoder/layer.1/attention/output/dense/MatMul_output_0: 3defed7d
/bert/pooler/Gather_output_0: 3d0fd090
onnx::MatMul_382_output: 3b1caa1b
/bert/encoder/layer.0/intermediate/intermediate_act_fn/Constant_2_output_0_output: 3b810a14
/bert/encoder/layer.0/attention/self/value/MatMul_output_0: 3d88b5bc
/bert/encoder/layer.1/intermediate/intermediate_act_fn/Constant_1_output_0_output: 3c010a14
/bert/encoder/layer.0/attention/self/Reshape_2_output_0: 3d80b01d
ONNXTRT_Broadcast_201_output: 3a3361ef
ONNXTRT_Broadcast_204_output: 3b436001
ONNXTRT_Broadcast_180_output: 3c010a14
bert.encoder.layer.0.intermediate.dense.bias_output: 3bb0c57d
onnx::MatMul_389_output: 3bd1f3a1
/bert/embeddings/word_embeddings/Gather_output_0: 3aa61050
/bert/embeddings/token_type_embeddings/Gather_output_0: 39915fbb
/bert/embeddings/Add_output_0: 3b0e2d95
/bert/embeddings/position_embeddings/Gather_output_0: 3ab04766
/bert/embeddings/Add_1_output_0: 3b9529cf
logits: 3da0507f
ONNXTRT_Broadcast_283_output: 3a1f54e2
/bert/embeddings/LayerNorm/LayerNormalization_output_0: 3d2b067a
/bert/encoder/layer.1/attention/self/query/MatMul_output_0: 3d1f9dcd
ONNXTRT_Broadcast_206_output: 3acfd000
bert.encoder.layer.1.attention.self.key.bias_output: 3a3361ef
/bert/encoder/layer.0/intermediate/intermediate_act_fn/Constant_1_output_0_output: 3c010a14
onnx::MatMul_378_output: 3bce389d
/bert/encoder/layer.1/attention/self/Cast_output_0: 3f010a14
/bert/encoder/layer.1/intermediate/intermediate_act_fn/Constant_2_output_0_output: 3b810a14
/bert/encoder/layer.0/attention/self/Constant_16_output_0_output: 3c010a14
/bert/encoder/layer.0/attention/self/Mul_output_0: 3c7e0fd1
ONNXTRT_Broadcast_176_output: 3bb0c57d
/bert/encoder/layer.1/output/dense/Add_output_0: 3d9b34bb
/bert/encoder/layer.0/attention/self/Transpose_2_output_0: 3d36016b
/bert/encoder/layer.1/attention/self/query/Add_output_0: 3d2094b6
/bert/encoder/layer.0/intermediate/intermediate_act_fn/Mul_output_0: 3d4ae541
bert.encoder.layer.1.attention.self.value.bias_output: 3acfd000
/bert/pooler/dense/Gemm_output_0: 3dbae479
ONNXTRT_Broadcast_182_output: 3b810a14
ONNXTRT_Broadcast_272_output: 3ae9dc2d
bert.encoder.layer.1.output.dense.bias_output: 3ae9dc2d
/bert/encoder/layer.0/output/LayerNorm/LayerNormalization_output_0: 3d22a4db
ONNXTRT_Broadcast_196_output: 3b96f374
ONNXTRT_Broadcast_242_output: 3b367d3d
ONNXTRT_Broadcast_270_output: 3b840366
/bert/encoder/layer.0/attention/self/Transpose_1_output_0: 3d80b01d
/bert/encoder/layer.1/attention/self/value/Add_output_0: 3d66e6b7
/bert/encoder/layer.1/output/Add_output_0: 3dae935b
/bert/encoder/layer.1/attention/self/Transpose_output_0: 3d2094b6
classifier.weight_output: 3ab38163
/bert/encoder/layer.0/attention/output/Add_output_0: 3ddcbb82
onnx::MatMul_385_output: 3b436001
/bert/encoder/layer.0/intermediate/dense/MatMul_output_0: 3dc646be
/bert/encoder/layer.0/output/Add_output_0: 3e2e3ab1
/bert/encoder/layer.1/intermediate/intermediate_act_fn/Constant_output_0_output: 3c367d3d
/bert/Cast_output_0: 3c010a14
/bert/Constant_21_output_0_output: 3c010a14
ONNXTRT_Broadcast_104_output: 3c010a14
/bert/Sub_output_0: 3c010a14
/bert/Where_2_output_0: 7f800000
ONNXTRT_Broadcast_244_output: 3b367d3d
/bert/encoder/layer.1/attention/self/Mul_1_output_0: 3c71df99
/bert/encoder/layer.1/attention/self/Sqrt_2_output_0: 3b367d3d
/bert/encoder/layer.1/intermediate/intermediate_act_fn/Add_output_0: 3c810a14
/bert/encoder/layer.1/attention/self/Add_output_0: 7f800000
bert.pooler.dense.bias_output: 3ac7a73c
/bert/encoder/layer.1/attention/self/Softmax_output: 3b26061c
onnx::MatMul_366_output: 3b2ba180
ONNXTRT_Broadcast_108_output: 3b2ba180
/bert/encoder/layer.0/attention/self/query/MatMul_output_0: 3d2a9b65
bert.encoder.layer.0.attention.self.query.bias_output: 3b85dcf8
ONNXTRT_Broadcast_110_output: 3b85dcf8
/bert/encoder/layer.0/attention/self/query/Add_output_0: 3d33a618
ONNXTRT_Broadcast_174_output: 3b930eeb
/bert/encoder/layer.1/attention/output/LayerNorm/LayerNormalization_output_0: 3d1e52f4
onnx::MatMul_390_output: 3b7f18f5
/bert/encoder/layer.1/intermediate/intermediate_act_fn/Erf_output_0: 3c010a14
/bert/encoder/layer.0/intermediate/intermediate_act_fn/Erf_output_0: 3c010a14
/bert/encoder/layer.1/attention/self/MatMul_1_output_0: 3d39b39c
/bert/encoder/layer.0/output/dense/Add_output_0: 3dffc0b0
/bert/encoder/layer.1/output/dense/MatMul_output_0: 3d9abdca
/bert/encoder/layer.0/attention/output/dense/MatMul_output_0: 3dd4ff4d
/bert/encoder/layer.0/intermediate/intermediate_act_fn/Mul_1_output_0: 3ccae541
/bert/encoder/layer.1/attention/self/Transpose_3_output_0: 3d39b39c
/bert/encoder/layer.0/attention/self/Reshape_output_0: 3d33a618
/bert/encoder/layer.0/attention/self/Transpose_output_0: 3d33a618
onnx::MatMul_369_output: 3b209066
ONNXTRT_Broadcast_113_output: 3b209066
/bert/encoder/layer.0/attention/self/key/MatMul_output_0: 3d31a52a
bert.encoder.layer.0.attention.self.key.bias_output: 3a7fa4bf
ONNXTRT_Broadcast_115_output: 3a7fa4bf
/bert/encoder/layer.0/attention/self/key/Add_output_0: 3d36016b
/bert/encoder/layer.1/intermediate/intermediate_act_fn/Div_output_0: 3d785566
/bert/encoder/layer.1/intermediate/dense/Add_output_0: 3daf992e
/bert/encoder/layer.1/attention/self/Constant_16_output_0_output: 3c010a14
/bert/encoder/layer.1/attention/output/dense/Add_output_0: 3df2faa4
/bert/encoder/layer.1/attention/self/Transpose_1_output_0: 3d66e6b7
bert.encoder.layer.1.intermediate.dense.bias_output: 3c0ca988
/bert/encoder/layer.1/attention/self/Reshape_2_output_0: 3d66e6b7
ONNXTRT_Broadcast_262_output: 3c0ca988
/bert/encoder/layer.1/intermediate/dense/MatMul_output_0: 3db429aa
ONNXTRT_Broadcast_268_output: 3b810a14
/bert/encoder/layer.1/attention/self/Cast_1_output_0: 3a810a14
/bert/encoder/layer.0/attention/output/LayerNorm/LayerNormalization_output_0: 3ddcf6d0
ONNXTRT_Broadcast_260_output: 3b7f18f5
ONNXTRT_Broadcast_186_output: 3b4d7a97
/bert/encoder/layer.0/attention/self/Reshape_1_output_0: 3d36016b
onnx::MatMul_372_output: 3b8232cc
ONNXTRT_Broadcast_118_output: 3b8232cc
