TRT-101000-EntropyCalibration2
/bert/encoder/layer.1/attention/output/dense/Add_output_0: 3df31b38
bert.pooler.dense.weight_output: 3ba026e0
onnx::MatMul_389_output: 3bd1f3a1
/bert/encoder/layer.0/attention/self/value/Add_output_0: 3d80a65f
ONNXTRT_Broadcast_178_output: 3c367d3d
/bert/encoder/layer.0/attention/self/Sqrt_1_output_0: 3b367d3d
/bert/encoder/layer.1/attention/self/Transpose_2_output_0: 3d2a13a5
classifier.bias_output: 3a1f54e2
/bert/encoder/layer.0/intermediate/intermediate_act_fn/Constant_1_output_0_output: 3c010a14
/bert/encoder/layer.1/attention/self/Sqrt_1_output_0: 3b367d3d
/bert/pooler/dense/Gemm_output_0: 3dbae413
/bert/encoder/layer.0/intermediate/intermediate_act_fn/Div_output_0: 3d878459
onnx::MatMul_385_output: 3b436001
ONNXTRT_Broadcast_196_output: 3b96f374
/bert/encoder/layer.1/intermediate/dense/Add_output_0: 3dafbf73
/bert/encoder/layer.1/attention/self/Reshape_3_output_0: 3d36a28e
ONNXTRT_Broadcast_174_output: 3b930eeb
/bert/encoder/layer.1/attention/output/LayerNorm/LayerNormalization_output_0: 3d1e43e6
bert.encoder.layer.1.attention.self.value.bias_output: 3acfd000
/bert/encoder/layer.1/attention/self/query/MatMul_output_0: 3d1cfc94
/bert/encoder/layer.0/attention/self/MatMul_1_output_0: 3d4fa109
/bert/encoder/layer.0/attention/output/LayerNorm/LayerNormalization_output_0: 3dd95e7a
/bert/encoder/layer.0/intermediate/intermediate_act_fn/Erf_output_0: 3c010a14
/bert/encoder/layer.0/attention/self/Softmax_output_0: 3b61e3c8
onnx::MatMul_379_output: 3b381e3c
/bert/encoder/layer.1/attention/output/dense/MatMul_output_0: 3deee6d8
/bert/encoder/layer.0/attention/self/Div_output_0: 3a810a14
/bert/encoder/layer.1/attention/self/Div_output_0: 3a810a14
/bert/encoder/layer.0/output/dense/Add_output_0: 3dff73e9
/bert/encoder/layer.1/attention/self/value/Add_output_0: 3d72650f
/bert/encoder/layer.0/attention/self/Softmax_output: 3b61e3c8
ONNXTRT_Broadcast_184_output: 3bce389d
/bert/encoder/layer.1/attention/self/Cast_output_0: 3f010a14
/bert/encoder/layer.0/intermediate/intermediate_act_fn/Constant_output_0_output: 3c367d3d
onnx::MatMul_391_output: 3b840366
/bert/pooler/dense/Gemm_output: 3dc1ed03
/bert/encoder/layer.1/output/dense/Add_output_0: 3d9e4dd0
ONNXTRT_Broadcast_252_output: 3c1f1e63
/bert/encoder/layer.1/intermediate/intermediate_act_fn/Mul_output_0: 3d910701
/bert/encoder/layer.0/output/Add_output_0: 3e2a4da7
/bert/encoder/layer.0/attention/self/Reshape_3_output_0: 3d4fa109
/bert/encoder/layer.0/intermediate/intermediate_act_fn/Mul_output_0: 3d48ad9e
/bert/encoder/layer.1/output/dense/MatMul_output_0: 3d9af6b8
/bert/encoder/layer.1/attention/self/Transpose_output_0: 3d208709
/bert/encoder/layer.1/attention/self/Sqrt_output_0: 3d810a14
/bert/encoder/layer.0/attention/output/dense/Add_output_0: 3dd2ad94
ONNXTRT_Broadcast_270_output: 3b840366
/bert/encoder/layer.1/attention/self/Cast_1_output_0: 3a810a14
bert.encoder.layer.0.intermediate.dense.bias_output: 3bb0c57d
/bert/encoder/layer.1/attention/self/Sqrt_2_output_0: 3b367d3d
/bert/encoder/layer.1/intermediate/dense/MatMul_output_0: 3db3e55d
ONNXTRT_Broadcast_156_output: 3b367d3d
onnx::MatMul_377_output: 3b930eeb
ONNXTRT_Broadcast_250_output: 3bd1f3a1
/bert/encoder/layer.1/attention/self/Add_output_0: 7f800000
/bert/encoder/layer.1/attention/self/value/MatMul_output_0: 3d6b87f0
ONNXTRT_Broadcast_194_output: 3b381e3c
/bert/encoder/layer.1/attention/self/Mul_output_0: 3c630527
/bert/encoder/layer.1/attention/self/Reshape_output_0: 3d208709
/bert/encoder/layer.0/attention/self/Add_output_0: 7f800000
/classifier/Gemm_output: 3da1d2f9
/bert/encoder/layer.0/attention/self/Transpose_2_output_0: 3d36016d
classifier.weight_output: 3ab38163
/bert/encoder/layer.0/attention/self/Sqrt_output_0: 3d810a14
/bert/encoder/layer.0/output/LayerNorm/LayerNormalization_output_0: 3d23365a
ONNXTRT_Broadcast_180_output: 3c010a14
/bert/encoder/layer.0/attention/self/Cast_output_0: 3f010a14
/bert/encoder/layer.0/attention/self/Constant_16_output_0_output: 3c010a14
bert.encoder.layer.1.attention.output.dense.bias_output: 3c1f1e63
/bert/encoder/layer.0/attention/self/Sqrt_2_output_0: 3b367d3d
/bert/embeddings/word_embeddings/Gather_output_0: 3aa61050
/bert/embeddings/token_type_embeddings/Gather_output_0: 39915fbb
/bert/embeddings/Add_output_0: 3b0e2d95
/bert/embeddings/position_embeddings/Gather_output_0: 3ab04766
/bert/embeddings/Add_1_output_0: 3b9529cf
logits: 3da06663
ONNXTRT_Broadcast_283_output: 3a1f54e2
/bert/embeddings/LayerNorm/LayerNormalization_output_0: 3d2b067a
ONNXTRT_Broadcast_120_output: 3b069168
/bert/encoder/layer.1/output/Add_output_0: 3dae86ff
/bert/encoder/layer.0/attention/self/Reshape_2_output_0: 3d80a65f
/bert/encoder/layer.1/intermediate/intermediate_act_fn/Add_output_0: 3c810a14
/bert/encoder/layer.0/intermediate/intermediate_act_fn/Mul_1_output_0: 3cc8ad9e
/bert/pooler/Gather_output_0: 3d10aff2
ONNXTRT_Broadcast_176_output: 3bb0c57d
bert.encoder.layer.1.intermediate.dense.bias_output: 3c0ca988
onnx::MatMul_376_output: 3b5e3c22
/bert/encoder/layer.1/intermediate/intermediate_act_fn/Mul_1_output_0: 3d110701
ONNXTRT_Broadcast_166_output: 3b2ca727
/bert/encoder/layer.0/attention/output/dense/MatMul_output_0: 3dd0eddb
/bert/encoder/layer.1/intermediate/intermediate_act_fn/Constant_2_output_0_output: 3b810a14
ONNXTRT_Broadcast_186_output: 3b4d7a97
ONNXTRT_Broadcast_206_output: 3acfd000
/bert/encoder/layer.1/attention/self/Reshape_1_output_0: 3d2a13a5
ONNXTRT_Broadcast_281_output: 3ac7a73c
/bert/encoder/layer.1/attention/self/key/MatMul_output_0: 3d293722
/bert/encoder/layer.1/attention/self/key/Add_output_0: 3d2a13a5
/bert/encoder/layer.0/attention/self/Mul_output_0: 3c7d798c
/bert/encoder/layer.0/output/dense/MatMul_output_0: 3df30b39
/bert/encoder/layer.1/attention/output/Add_output_0: 3e05a7f9
/bert/encoder/layer.0/intermediate/dense/MatMul_output_0: 3dbda3a1
/bert/encoder/layer.1/attention/self/Transpose_3_output_0: 3d36a28e
/bert/encoder/layer.0/attention/self/Cast_1_output_0: 3a810a14
/bert/encoder/layer.1/attention/self/query/Add_output_0: 3d208709
ONNXTRT_Broadcast_158_output: 3b367d3d
/bert/encoder/layer.0/attention/self/value/MatMul_output_0: 3d825f22
/bert/encoder/layer.0/intermediate/intermediate_act_fn/Constant_2_output_0_output: 3b810a14
ONNXTRT_Broadcast_199_output: 3b1caa1b
/bert/encoder/layer.0/attention/self/Transpose_3_output_0: 3d4fa109
bert.encoder.layer.0.attention.self.value.bias_output: 3b069168
onnx::MatMul_382_output: 3b1caa1b
/bert/encoder/layer.0/attention/self/Mul_1_output_0: 3c80b287
bert.encoder.layer.1.attention.self.key.bias_output: 3a3361ef
/bert/Cast_output_0: 3c010a14
/bert/Constant_21_output_0_output: 3c010a14
ONNXTRT_Broadcast_104_output: 3c010a14
/bert/Sub_output_0: 3c010a14
/bert/Where_2_output_0: 7f800000
ONNXTRT_Broadcast_272_output: 3ae9dc2d
/bert/encoder/layer.1/attention/self/Mul_1_output_0: 3c70865c
ONNXTRT_Broadcast_244_output: 3b367d3d
/bert/encoder/layer.1/attention/self/MatMul_output_0: 3d9c452f
/bert/encoder/layer.1/attention/self/Softmax_output: 3b222c52
/bert/encoder/layer.1/attention/self/Softmax_output_0: 3b222c52
ONNXTRT_Broadcast_242_output: 3b367d3d
bert.encoder.layer.0.attention.output.dense.bias_output: 3b2ca727
onnx::MatMul_366_output: 3b2ba180
ONNXTRT_Broadcast_108_output: 3b2ba180
/bert/encoder/layer.0/attention/self/query/MatMul_output_0: 3d2a606c
bert.encoder.layer.0.attention.self.query.bias_output: 3b85dcf8
ONNXTRT_Broadcast_110_output: 3b85dcf8
/bert/encoder/layer.0/attention/self/query/Add_output_0: 3d333bd7
bert.encoder.layer.0.output.dense.bias_output: 3b4d7a97
ONNXTRT_Broadcast_182_output: 3b810a14
ONNXTRT_Broadcast_262_output: 3c0ca988
bert.pooler.dense.bias_output: 3ac7a73c
/bert/encoder/layer.1/attention/self/MatMul_1_output_0: 3d36a28e
ONNXTRT_Broadcast_204_output: 3b436001
/bert/pooler/activation/Tanh_output_0: 3c010a14
ONNXTRT_Broadcast_264_output: 3c367d3d
ONNXTRT_Broadcast_268_output: 3b810a14
/bert/encoder/layer.1/intermediate/intermediate_act_fn/Constant_1_output_0_output: 3c010a14
onnx::MatMul_390_output: 3b7f18f5
/bert/encoder/layer.1/intermediate/intermediate_act_fn/Constant_output_0_output: 3c367d3d
/bert/encoder/layer.0/intermediate/intermediate_act_fn/Add_output_0: 3c810a14
ONNXTRT_Broadcast_164_output: 3b5e3c22
/bert/encoder/layer.0/attention/self/Reshape_output_0: 3d333bd7
/bert/encoder/layer.0/attention/self/Transpose_output_0: 3d333bd7
onnx::MatMul_369_output: 3b209066
ONNXTRT_Broadcast_113_output: 3b209066
/bert/encoder/layer.0/attention/self/key/MatMul_output_0: 3d31a52c
bert.encoder.layer.0.attention.self.key.bias_output: 3a7fa4bf
ONNXTRT_Broadcast_115_output: 3a7fa4bf
/bert/encoder/layer.0/attention/self/key/Add_output_0: 3d36016d
/bert/encoder/layer.1/attention/self/Transpose_1_output_0: 3d72650f
/bert/encoder/layer.1/intermediate/intermediate_act_fn/Div_output_0: 3d788b85
/bert/encoder/layer.1/attention/self/Reshape_2_output_0: 3d72650f
bert.encoder.layer.1.attention.self.query.bias_output: 3b96f374
/bert/encoder/layer.0/attention/self/MatMul_output_0: 3e1c581b
/bert/encoder/layer.0/attention/output/Add_output_0: 3ddce36c
/bert/encoder/layer.1/attention/self/Constant_16_output_0_output: 3c010a14
ONNXTRT_Broadcast_201_output: 3a3361ef
onnx::MatMul_378_output: 3bce389d
ONNXTRT_Broadcast_266_output: 3c010a14
/bert/encoder/layer.1/intermediate/intermediate_act_fn/Erf_output_0: 3c010a14
/bert/encoder/layer.0/intermediate/dense/Add_output_0: 3dbfa664
ONNXTRT_Broadcast_260_output: 3b7f18f5
/bert/encoder/layer.0/attention/self/Transpose_1_output_0: 3d80a65f
bert.encoder.layer.1.output.dense.bias_output: 3ae9dc2d
/bert/encoder/layer.0/attention/self/Reshape_1_output_0: 3d36016d
onnx::MatMul_372_output: 3b8232cc
ONNXTRT_Broadcast_118_output: 3b8232cc
